{
  "version": "1.0",
  "truncation": {
    "direction": "Right",
    "max_length": 128,
    "strategy": "LongestFirst",
    "stride": 0
  },
  "padding": null,
  "added_tokens": [
    {
      "id": 0,
      "content": "[UNK]",
      "single_word": false,
      "lstrip": false,
      "rstrip": false,
      "normalized": false,
      "special": true
    },
    {
      "id": 1,
      "content": "[PAD]",
      "single_word": false,
      "lstrip": false,
      "rstrip": false,
      "normalized": false,
      "special": true
    },
    {
      "id": 2,
      "content": "[CLS]",
      "single_word": false,
      "lstrip": false,
      "rstrip": false,
      "normalized": false,
      "special": true
    },
    {
      "id": 3,
      "content": "[SEP]",
      "single_word": false,
      "lstrip": false,
      "rstrip": false,
      "normalized": false,
      "special": true
    },
    {
      "id": 4,
      "content": "[MASK]",
      "single_word": false,
      "lstrip": false,
      "rstrip": false,
      "normalized": false,
      "special": true
    }
  ],
  "normalizer": null,
  "pre_tokenizer": {
    "type": "Whitespace"
  },
  "post_processor": {
    "type": "TemplateProcessing",
    "single": [
      {
        "Sequence": {
          "id": "A",
          "type_id": 0
        }
      }
    ],
    "pair": [
      {
        "Sequence": {
          "id": "A",
          "type_id": 0
        }
      },
      {
        "Sequence": {
          "id": "B",
          "type_id": 1
        }
      }
    ],
    "special_tokens": {}
  },
  "decoder": null,
  "model": {
    "type": "WordPiece",
    "unk_token": "[UNK]",
    "continuing_subword_prefix": "##",
    "max_input_chars_per_word": 100,
    "vocab": {
      "[UNK]": 0,
      "[PAD]": 1,
      "[CLS]": 2,
      "[SEP]": 3,
      "[MASK]": 4,
      ",": 5,
      "-": 6,
      ".": 7,
      "0": 8,
      "1": 9,
      "2": 10,
      "3": 11,
      "4": 12,
      "5": 13,
      "6": 14,
      "7": 15,
      "8": 16,
      "9": 17,
      "?": 18,
      "B": 19,
      "I": 20,
      "K": 21,
      "M": 22,
      "O": 23,
      "P": 24,
      "S": 25,
      "U": 26,
      "a": 27,
      "b": 28,
      "c": 29,
      "d": 30,
      "e": 31,
      "f": 32,
      "g": 33,
      "h": 34,
      "i": 35,
      "j": 36,
      "k": 37,
      "l": 38,
      "m": 39,
      "n": 40,
      "o": 41,
      "p": 42,
      "r": 43,
      "s": 44,
      "t": 45,
      "u": 46,
      "w": 47,
      "y": 48,
      "##2": 49,
      "##6": 50,
      "##7": 51,
      "##9": 52,
      "##1": 53,
      "##5": 54,
      "##a": 55,
      "##p": 56,
      "##n": 57,
      "##3": 58,
      "##t": 59,
      "##u": 60,
      "##k": 61,
      "##8": 62,
      "##e": 63,
      "##r": 64,
      "##f": 65,
      "##g": 66,
      "##s": 67,
      "##i": 68,
      "##0": 69,
      "##m": 70,
      "##4": 71,
      "##l": 72,
      "##c": 73,
      "##h": 74,
      "##d": 75,
      "##o": 76,
      "##j": 77,
      "##b": 78,
      "##O": 79,
      "##w": 80,
      "##an": 81,
      "##ar": 82,
      "##si": 83,
      "##at": 84,
      "##ari": 85,
      "##en": 86,
      "##es": 87,
      "##im": 88,
      "##da": 89,
      "PO": 90,
      "##asi": 91,
      "sa": 92,
      "##esan": 93,
      "dari": 94,
      "##el": 95,
      "##tu": 96,
      "##tim": 97,
      "##er": 98,
      "es": 99,
      "hari": 100,
      "##uda": 101,
      "##timasi": 102,
      "estimasi": 103,
      "##udah": 104,
      "##esanan": 105,
      "##mp": 106,
      "##eng": 107,
      "##ai": 108,
      "##ang": 109,
      "un": 110,
      "Ka": 111,
      "##tuk": 112,
      "untuk": 113,
      "Pesanan": 114,
      "bar": 115,
      "bat": 116,
      "bel": 117,
      "le": 118,
      "sudah": 119,
      "##um": 120,
      "##ch": 121,
      "##wat": 122,
      "samp": 123,
      "batch": 124,
      "belum": 125,
      "lewat": 126,
      "sampai": 127,
      "##mi": 128,
      "##ik": 129,
      "##on": 130,
      "##uk": 131,
      "Sudah": 132,
      "per": 133,
      "peng": 134,
      "tel": 135,
      "##pan": 136,
      "##ng": 137,
      "##rim": 138,
      "##irim": 139,
      "saat": 140,
      "Kapan": 141,
      "baru": 142,
      "pengirim": 143,
      "telat": 144,
      "pengiriman": 145,
      "sp": 146,
      "##esi": 147,
      "##fik": 148,
      "spesi": 149,
      "##fikasi": 150,
      "spesifikasi": 151,
      "re": 152,
      "ti": 153,
      "##dak": 154,
      "##tur": 155,
      "retur": 156,
      "tidak": 157,
      "##omp": 158,
      "##la": 159,
      "perm": 160,
      "Komp": 161,
      "di": 162,
      "dat": 163,
      "deng": 164,
      "go": 165,
      "ing": 166,
      "kar": 167,
      "pa": 168,
      "pe": 169,
      "##aan": 170,
      "##resan": 171,
      "##in": 172,
      "##mesanan": 173,
      "##ena": 174,
      "sala": 175,
      "Kami": 176,
      "##onen": 177,
      "##ukaan": 178,
      "permukaan": 179,
      "Komponen": 180,
      "datang": 181,
      "dengan": 182,
      "goresan": 183,
      "ingin": 184,
      "karena": 185,
      "pemesanan": 186,
      "salah": 187,
      "ka": 188,
      "ses": 189,
      "##uai": 190,
      "kami": 191,
      "sesuai": 192,
      "ber": 193,
      "kon": 194,
      "##et": 195,
      "##ol": 196,
      "Be": 197,
      "uj": 198,
      "##ap": 199,
      "##ung": 200,
      "##fung": 201,
      "##sang": 202,
      "##it": 203,
      "##44": 204,
      "##ber": 205,
      "unit": 206,
      "pasang": 207,
      "berfung": 208,
      "Beber": 209,
      "uji": 210,
      "##apa": 211,
      "berfungsi": 212,
      "Beberapa": 213,
      "Uk": 214,
      "mel": 215,
      "par": 216,
      "tol": 217,
      "##28": 218,
      "##96": 219,
      "##ur": 220,
      "##ansi": 221,
      "##eset": 222,
      "##eransi": 223,
      "pada": 224,
      "Ukur": 225,
      "meleset": 226,
      "part": 227,
      "toleransi": 228,
      "Ukuran": 229,
      "Meng": 230,
      "pesanan": 231,
      "##67": 232,
      "##61": 233,
      "##77": 234,
      "##74": 235,
      "##16": 236,
      "##aj": 237,
      "##isi": 238,
      "##disi": 239,
      "barang": 240,
      "##ukan": 241,
      "kondisi": 242,
      "Mengaj": 243,
      "Mengajukan": 244,
      "B5": 245,
      "B8": 246,
      "In": 247,
      "hen": 248,
      "is": 249,
      "ke": 250,
      "komp": 251,
      "yang": 252,
      "##27": 253,
      "##78": 254,
      "##90": 255,
      "##ak": 256,
      "##tr": 257,
      "##tik": 258,
      "##kan": 259,
      "##ma": 260,
      "##lai": 261,
      "##bang": 262,
      "sama": 263,
      "##timbang": 264,
      "pertimbang": 265,
      "kontr": 266,
      "Ini": 267,
      "hentik": 268,
      "isu": 269,
      "komplai": 270,
      "pertimbangkan": 271,
      "kontrak": 272,
      "hentikan": 273,
      "komplain": 274,
      "B4": 275,
      "Ket": 276,
      "bu": 277,
      "meng": 278,
      "pr": 279,
      "sol": 280,
      "##29": 281,
      "##23": 282,
      "##24": 283,
      "##644": 284,
      "##76": 285,
      "##79": 286,
      "##71": 287,
      "##31": 288,
      "##38": 289,
      "##34": 290,
      "##ul": 291,
      "##usi": 292,
      "##gu": 293,
      "##gang": 294,
      "##mb": 295,
      "##duk": 296,
      "##oduk": 297,
      "##anen": 298,
      "##atan": 299,
      "##tuh": 300,
      "##erla": 301,
      "permanen": 302,
      "berul": 303,
      "Keterla": 304,
      "butuh": 305,
      "menggang": 306,
      "produk": 307,
      "solusi": 308,
      "##mbatan": 309,
      "berulang": 310,
      "Keterlambatan": 311,
      "mengganggu": 312,
      "produksi": 313,
      "14": 314,
      "20": 315,
      "59": 316,
      "58": 317,
      "667": 318,
      "71": 319,
      "89": 320,
      "81": 321,
      "88": 322,
      "90": 323,
      "B9": 324,
      "B1": 325,
      "B28": 326,
      "##21": 327,
      "##267": 328,
      "##75": 329,
      "##70": 330,
      "##99": 331,
      "##93": 332,
      "##94": 333,
      "##55": 334,
      "##80": 335,
      "##966": 336,
      "B51": 337,
      "##341": 338,
      "17": 339,
      "13": 340,
      "18": 341,
      "1267": 342,
      "155": 343,
      "28": 344,
      "244": 345,
      "270": 346,
      "35": 347,
      "38": 348,
      "361": 349,
      "377": 350,
      "378": 351,
      "338": 352,
      "393": 353,
      "46": 354,
      "47": 355,
      "44": 356,
      "423": 357,
      "479": 358,
      "434": 359,
      "56": 360,
      "51": 361,
      "55": 362,
      "577": 363,
      "571": 364,
      "63": 365,
      "60": 366,
      "624": 367,
      "70": 368,
      "796": 369,
      "761": 370,
      "716": 371,
      "755": 372,
      "84": 373,
      "877": 374,
      "816": 375,
      "878": 376,
      "823": 377,
      "96": 378,
      "97": 379,
      "944": 380,
      "929": 381,
      "971": 382,
      "B7": 383,
      "B3": 384,
      "B67": 385,
      "B61": 386,
      "B16": 387,
      "B644": 388,
      "B76": 389,
      "B966": 390,
      "##26": 391,
      "##25": 392,
      "##20": 393,
      "##69": 394,
      "##60": 395,
      "##696": 396,
      "##17": 397,
      "##59": 398,
      "##54": 399,
      "##527": 400,
      "##590": 401,
      "##538": 402,
      "##575": 403,
      "##37": 404,
      "##39": 405,
      "##33": 406,
      "##30": 407,
      "##378": 408,
      "##379": 409,
      "##370": 410,
      "##82": 411,
      "##89": 412,
      "##880": 413,
      "##09": 414,
      "##08": 415,
      "##024": 416,
      "##41": 417,
      "##493": 418,
      "##430": 419,
      "##964": 420,
      "##611": 421,
      "##614": 422,
      "##772": 423,
      "##741": 424,
      "##743": 425,
      "B516": 426,
      "B589": 427,
      "B874": 428,
      "B827": 429,
      "B871": 430,
      "B841": 431,
      "##272": 432,
      "##908": 433,
      "##904": 434,
      "B496": 435,
      "B429": 436,
      "B437": 437,
      "##235": 438,
      "##766": 439,
      "##764": 440,
      "##311": 441,
      "##384": 442,
      "1421": 443,
      "14741": 444,
      "20644": 445,
      "20378": 446,
      "59966": 447,
      "59272": 448,
      "58493": 449,
      "58384": 450,
      "66754": 451,
      "66733": 452,
      "71024": 453,
      "71766": 454,
      "89904": 455,
      "89764": 456,
      "8199": 457,
      "81379": 458,
      "88880": 459,
      "88614": 460,
      "90590": 461,
      "90370": 462,
      "B978": 463,
      "B917": 464,
      "B124": 465,
      "B139": 466,
      "B282": 467,
      "B289": 468,
      "##992": 469,
      "B512": 470,
      "B510": 471,
      "17611": 472,
      "13908": 473,
      "18964": 474,
      "12679": 475,
      "15582": 476,
      "28575": 477,
      "24444": 478,
      "27028": 479,
      "35311": 480,
      "38992": 481,
      "36128": 482,
      "37728": 483,
      "37869": 484,
      "33828": 485,
      "39308": 486,
      "46267": 487,
      "47341": 488,
      "44341": 489,
      "42331": 490,
      "47979": 491,
      "43429": 492,
      "56527": 493,
      "51430": 494,
      "55743": 495,
      "57775": 496,
      "57159": 497,
      "63235": 498,
      "60772": 499,
      "62416": 500,
      "70644": 501,
      "79609": 502,
      "76127": 503,
      "71625": 504,
      "75526": 505,
      "84538": 506,
      "87790": 507,
      "81694": 508,
      "87874": 509,
      "82360": 510,
      "96696": 511,
      "9720": 512,
      "94474": 513,
      "92980": 514,
      "97131": 515,
      "B721": 516,
      "B394": 517,
      "B671": 518,
      "B610": 519,
      "B164": 520,
      "B762": 521,
      "14211": 522,
      "81998": 523,
      "97207": 524
    }
  }
}